assets 5000
checkWelfareEligibility_i5o1_1_hash_i4o1_1_param_0 40000
checkWelfareEligibility_i5o1_1_hash_i4o1_1_param_1 5000
checkWelfareEligibility_i5o1_1_hash_i4o1_1_param_2 1000
checkWelfareEligibility_i5o1_1_hash_i4o1_1_param_3 123
checkWelfareEligibility_i5o1_1_param_0 40000
checkWelfareEligibility_i5o1_1_param_1 5000
checkWelfareEligibility_i5o1_1_param_2 1000
checkWelfareEligibility_i5o1_1_param_3 123
checkWelfareEligibility_i5o1_1_param_4 46123
checkWelfareEligibility_i5o1_1_result 1
checkWelfareEligibility_i5o1_1_result1 1
checkWelfareEligibility_i5o1_1_result2 1
checkWelfareEligibility_i5o1_1_sym_0 0
checkWelfareEligibility_i5o1_1_sym_1 0
checkWelfareEligibility_i5o1_1_sym_10 1
checkWelfareEligibility_i5o1_1_sym_11 1
checkWelfareEligibility_i5o1_1_sym_2 1
checkWelfareEligibility_i5o1_1_sym_3 1
checkWelfareEligibility_i5o1_1_sym_4 45000
checkWelfareEligibility_i5o1_1_sym_5 50000
checkWelfareEligibility_i5o1_1_sym_6 21888242871839275222246405745257275088548364400416034343698204186575808485617
checkWelfareEligibility_i5o1_1_sym_6_b0 1
checkWelfareEligibility_i5o1_1_sym_6_b1 0
checkWelfareEligibility_i5o1_1_sym_6_b10 0
checkWelfareEligibility_i5o1_1_sym_6_b100 0
checkWelfareEligibility_i5o1_1_sym_6_b101 0
checkWelfareEligibility_i5o1_1_sym_6_b102 1
checkWelfareEligibility_i5o1_1_sym_6_b103 0
checkWelfareEligibility_i5o1_1_sym_6_b104 0
checkWelfareEligibility_i5o1_1_sym_6_b105 0
checkWelfareEligibility_i5o1_1_sym_6_b106 0
checkWelfareEligibility_i5o1_1_sym_6_b107 1
checkWelfareEligibility_i5o1_1_sym_6_b108 0
checkWelfareEligibility_i5o1_1_sym_6_b109 1
checkWelfareEligibility_i5o1_1_sym_6_b11 1
checkWelfareEligibility_i5o1_1_sym_6_b110 1
checkWelfareEligibility_i5o1_1_sym_6_b111 1
checkWelfareEligibility_i5o1_1_sym_6_b112 1
checkWelfareEligibility_i5o1_1_sym_6_b113 1
checkWelfareEligibility_i5o1_1_sym_6_b114 0
checkWelfareEligibility_i5o1_1_sym_6_b115 0
checkWelfareEligibility_i5o1_1_sym_6_b116 1
checkWelfareEligibility_i5o1_1_sym_6_b117 1
checkWelfareEligibility_i5o1_1_sym_6_b118 0
checkWelfareEligibility_i5o1_1_sym_6_b119 0
checkWelfareEligibility_i5o1_1_sym_6_b12 1
checkWelfareEligibility_i5o1_1_sym_6_b120 0
checkWelfareEligibility_i5o1_1_sym_6_b121 0
checkWelfareEligibility_i5o1_1_sym_6_b122 0
checkWelfareEligibility_i5o1_1_sym_6_b123 1
checkWelfareEligibility_i5o1_1_sym_6_b124 0
checkWelfareEligibility_i5o1_1_sym_6_b125 1
checkWelfareEligibility_i5o1_1_sym_6_b126 0
checkWelfareEligibility_i5o1_1_sym_6_b127 0
checkWelfareEligibility_i5o1_1_sym_6_b128 1
checkWelfareEligibility_i5o1_1_sym_6_b129 0
checkWelfareEligibility_i5o1_1_sym_6_b13 0
checkWelfareEligibility_i5o1_1_sym_6_b130 1
checkWelfareEligibility_i5o1_1_sym_6_b131 1
checkWelfareEligibility_i5o1_1_sym_6_b132 1
checkWelfareEligibility_i5o1_1_sym_6_b133 0
checkWelfareEligibility_i5o1_1_sym_6_b134 1
checkWelfareEligibility_i5o1_1_sym_6_b135 0
checkWelfareEligibility_i5o1_1_sym_6_b136 0
checkWelfareEligibility_i5o1_1_sym_6_b137 0
checkWelfareEligibility_i5o1_1_sym_6_b138 0
checkWelfareEligibility_i5o1_1_sym_6_b139 1
checkWelfareEligibility_i5o1_1_sym_6_b14 1
checkWelfareEligibility_i5o1_1_sym_6_b140 1
checkWelfareEligibility_i5o1_1_sym_6_b141 0
checkWelfareEligibility_i5o1_1_sym_6_b142 1
checkWelfareEligibility_i5o1_1_sym_6_b143 0
checkWelfareEligibility_i5o1_1_sym_6_b144 1
checkWelfareEligibility_i5o1_1_sym_6_b145 0
checkWelfareEligibility_i5o1_1_sym_6_b146 0
checkWelfareEligibility_i5o1_1_sym_6_b147 0
checkWelfareEligibility_i5o1_1_sym_6_b148 0
checkWelfareEligibility_i5o1_1_sym_6_b149 0
checkWelfareEligibility_i5o1_1_sym_6_b15 1
checkWelfareEligibility_i5o1_1_sym_6_b150 0
checkWelfareEligibility_i5o1_1_sym_6_b151 1
checkWelfareEligibility_i5o1_1_sym_6_b152 1
checkWelfareEligibility_i5o1_1_sym_6_b153 0
checkWelfareEligibility_i5o1_1_sym_6_b154 0
checkWelfareEligibility_i5o1_1_sym_6_b155 0
checkWelfareEligibility_i5o1_1_sym_6_b156 0
checkWelfareEligibility_i5o1_1_sym_6_b157 0
checkWelfareEligibility_i5o1_1_sym_6_b158 0
checkWelfareEligibility_i5o1_1_sym_6_b159 1
checkWelfareEligibility_i5o1_1_sym_6_b16 1
checkWelfareEligibility_i5o1_1_sym_6_b160 0
checkWelfareEligibility_i5o1_1_sym_6_b161 1
checkWelfareEligibility_i5o1_1_sym_6_b162 1
checkWelfareEligibility_i5o1_1_sym_6_b163 0
checkWelfareEligibility_i5o1_1_sym_6_b164 1
checkWelfareEligibility_i5o1_1_sym_6_b165 1
checkWelfareEligibility_i5o1_1_sym_6_b166 0
checkWelfareEligibility_i5o1_1_sym_6_b167 1
checkWelfareEligibility_i5o1_1_sym_6_b168 1
checkWelfareEligibility_i5o1_1_sym_6_b169 0
checkWelfareEligibility_i5o1_1_sym_6_b17 1
checkWelfareEligibility_i5o1_1_sym_6_b170 1
checkWelfareEligibility_i5o1_1_sym_6_b171 0
checkWelfareEligibility_i5o1_1_sym_6_b172 0
checkWelfareEligibility_i5o1_1_sym_6_b173 0
checkWelfareEligibility_i5o1_1_sym_6_b174 1
checkWelfareEligibility_i5o1_1_sym_6_b175 0
checkWelfareEligibility_i5o1_1_sym_6_b176 0
checkWelfareEligibility_i5o1_1_sym_6_b177 0
checkWelfareEligibility_i5o1_1_sym_6_b178 0
checkWelfareEligibility_i5o1_1_sym_6_b179 0
checkWelfareEligibility_i5o1_1_sym_6_b18 1
checkWelfareEligibility_i5o1_1_sym_6_b180 1
checkWelfareEligibility_i5o1_1_sym_6_b181 0
checkWelfareEligibility_i5o1_1_sym_6_b182 1
checkWelfareEligibility_i5o1_1_sym_6_b183 0
checkWelfareEligibility_i5o1_1_sym_6_b184 0
checkWelfareEligibility_i5o1_1_sym_6_b185 0
checkWelfareEligibility_i5o1_1_sym_6_b186 0
checkWelfareEligibility_i5o1_1_sym_6_b187 1
checkWelfareEligibility_i5o1_1_sym_6_b188 1
checkWelfareEligibility_i5o1_1_sym_6_b189 1
checkWelfareEligibility_i5o1_1_sym_6_b19 1
checkWelfareEligibility_i5o1_1_sym_6_b190 0
checkWelfareEligibility_i5o1_1_sym_6_b191 1
checkWelfareEligibility_i5o1_1_sym_6_b192 1
checkWelfareEligibility_i5o1_1_sym_6_b193 0
checkWelfareEligibility_i5o1_1_sym_6_b194 0
checkWelfareEligibility_i5o1_1_sym_6_b195 1
checkWelfareEligibility_i5o1_1_sym_6_b196 0
checkWelfareEligibility_i5o1_1_sym_6_b197 1
checkWelfareEligibility_i5o1_1_sym_6_b198 0
checkWelfareEligibility_i5o1_1_sym_6_b199 0
checkWelfareEligibility_i5o1_1_sym_6_b2 0
checkWelfareEligibility_i5o1_1_sym_6_b20 1
checkWelfareEligibility_i5o1_1_sym_6_b200 0
checkWelfareEligibility_i5o1_1_sym_6_b201 0
checkWelfareEligibility_i5o1_1_sym_6_b202 0
checkWelfareEligibility_i5o1_1_sym_6_b203 0
checkWelfareEligibility_i5o1_1_sym_6_b204 0
checkWelfareEligibility_i5o1_1_sym_6_b205 1
checkWelfareEligibility_i5o1_1_sym_6_b206 0
checkWelfareEligibility_i5o1_1_sym_6_b207 1
checkWelfareEligibility_i5o1_1_sym_6_b208 1
checkWelfareEligibility_i5o1_1_sym_6_b209 0
checkWelfareEligibility_i5o1_1_sym_6_b21 1
checkWelfareEligibility_i5o1_1_sym_6_b210 0
checkWelfareEligibility_i5o1_1_sym_6_b211 0
checkWelfareEligibility_i5o1_1_sym_6_b212 1
checkWelfareEligibility_i5o1_1_sym_6_b213 1
checkWelfareEligibility_i5o1_1_sym_6_b214 0
checkWelfareEligibility_i5o1_1_sym_6_b215 0
checkWelfareEligibility_i5o1_1_sym_6_b216 1
checkWelfareEligibility_i5o1_1_sym_6_b217 0
checkWelfareEligibility_i5o1_1_sym_6_b218 0
checkWelfareEligibility_i5o1_1_sym_6_b219 0
checkWelfareEligibility_i5o1_1_sym_6_b22 1
checkWelfareEligibility_i5o1_1_sym_6_b220 0
checkWelfareEligibility_i5o1_1_sym_6_b221 1
checkWelfareEligibility_i5o1_1_sym_6_b222 1
checkWelfareEligibility_i5o1_1_sym_6_b223 1
checkWelfareEligibility_i5o1_1_sym_6_b224 0
checkWelfareEligibility_i5o1_1_sym_6_b225 1
checkWelfareEligibility_i5o1_1_sym_6_b226 0
checkWelfareEligibility_i5o1_1_sym_6_b227 0
checkWelfareEligibility_i5o1_1_sym_6_b228 1
checkWelfareEligibility_i5o1_1_sym_6_b229 1
checkWelfareEligibility_i5o1_1_sym_6_b23 1
checkWelfareEligibility_i5o1_1_sym_6_b230 1
checkWelfareEligibility_i5o1_1_sym_6_b231 0
checkWelfareEligibility_i5o1_1_sym_6_b232 0
checkWelfareEligibility_i5o1_1_sym_6_b233 1
checkWelfareEligibility_i5o1_1_sym_6_b234 1
checkWelfareEligibility_i5o1_1_sym_6_b235 1
checkWelfareEligibility_i5o1_1_sym_6_b236 0
checkWelfareEligibility_i5o1_1_sym_6_b237 0
checkWelfareEligibility_i5o1_1_sym_6_b238 1
checkWelfareEligibility_i5o1_1_sym_6_b239 0
checkWelfareEligibility_i5o1_1_sym_6_b24 1
checkWelfareEligibility_i5o1_1_sym_6_b240 0
checkWelfareEligibility_i5o1_1_sym_6_b241 0
checkWelfareEligibility_i5o1_1_sym_6_b242 1
checkWelfareEligibility_i5o1_1_sym_6_b243 0
checkWelfareEligibility_i5o1_1_sym_6_b244 0
checkWelfareEligibility_i5o1_1_sym_6_b245 1
checkWelfareEligibility_i5o1_1_sym_6_b246 1
checkWelfareEligibility_i5o1_1_sym_6_b247 0
checkWelfareEligibility_i5o1_1_sym_6_b248 0
checkWelfareEligibility_i5o1_1_sym_6_b249 0
checkWelfareEligibility_i5o1_1_sym_6_b25 1
checkWelfareEligibility_i5o1_1_sym_6_b250 0
checkWelfareEligibility_i5o1_1_sym_6_b251 0
checkWelfareEligibility_i5o1_1_sym_6_b252 1
checkWelfareEligibility_i5o1_1_sym_6_b253 1
checkWelfareEligibility_i5o1_1_sym_6_b26 1
checkWelfareEligibility_i5o1_1_sym_6_b27 1
checkWelfareEligibility_i5o1_1_sym_6_b28 0
checkWelfareEligibility_i5o1_1_sym_6_b29 1
checkWelfareEligibility_i5o1_1_sym_6_b3 0
checkWelfareEligibility_i5o1_1_sym_6_b30 1
checkWelfareEligibility_i5o1_1_sym_6_b31 1
checkWelfareEligibility_i5o1_1_sym_6_b32 1
checkWelfareEligibility_i5o1_1_sym_6_b33 1
checkWelfareEligibility_i5o1_1_sym_6_b34 0
checkWelfareEligibility_i5o1_1_sym_6_b35 0
checkWelfareEligibility_i5o1_1_sym_6_b36 1
checkWelfareEligibility_i5o1_1_sym_6_b37 0
checkWelfareEligibility_i5o1_1_sym_6_b38 0
checkWelfareEligibility_i5o1_1_sym_6_b39 1
checkWelfareEligibility_i5o1_1_sym_6_b4 1
checkWelfareEligibility_i5o1_1_sym_6_b40 1
checkWelfareEligibility_i5o1_1_sym_6_b41 0
checkWelfareEligibility_i5o1_1_sym_6_b42 1
checkWelfareEligibility_i5o1_1_sym_6_b43 0
checkWelfareEligibility_i5o1_1_sym_6_b44 1
checkWelfareEligibility_i5o1_1_sym_6_b45 1
checkWelfareEligibility_i5o1_1_sym_6_b46 1
checkWelfareEligibility_i5o1_1_sym_6_b47 1
checkWelfareEligibility_i5o1_1_sym_6_b48 1
checkWelfareEligibility_i5o1_1_sym_6_b49 0
checkWelfareEligibility_i5o1_1_sym_6_b5 1
checkWelfareEligibility_i5o1_1_sym_6_b50 0
checkWelfareEligibility_i5o1_1_sym_6_b51 0
checkWelfareEligibility_i5o1_1_sym_6_b52 0
checkWelfareEligibility_i5o1_1_sym_6_b53 1
checkWelfareEligibility_i5o1_1_sym_6_b54 1
checkWelfareEligibility_i5o1_1_sym_6_b55 1
checkWelfareEligibility_i5o1_1_sym_6_b56 1
checkWelfareEligibility_i5o1_1_sym_6_b57 1
checkWelfareEligibility_i5o1_1_sym_6_b58 0
checkWelfareEligibility_i5o1_1_sym_6_b59 0
checkWelfareEligibility_i5o1_1_sym_6_b6 1
checkWelfareEligibility_i5o1_1_sym_6_b60 0
checkWelfareEligibility_i5o1_1_sym_6_b61 0
checkWelfareEligibility_i5o1_1_sym_6_b62 1
checkWelfareEligibility_i5o1_1_sym_6_b63 0
checkWelfareEligibility_i5o1_1_sym_6_b64 1
checkWelfareEligibility_i5o1_1_sym_6_b65 0
checkWelfareEligibility_i5o1_1_sym_6_b66 0
checkWelfareEligibility_i5o1_1_sym_6_b67 0
checkWelfareEligibility_i5o1_1_sym_6_b68 1
checkWelfareEligibility_i5o1_1_sym_6_b69 0
checkWelfareEligibility_i5o1_1_sym_6_b7 1
checkWelfareEligibility_i5o1_1_sym_6_b70 0
checkWelfareEligibility_i5o1_1_sym_6_b71 1
checkWelfareEligibility_i5o1_1_sym_6_b72 0
checkWelfareEligibility_i5o1_1_sym_6_b73 0
checkWelfareEligibility_i5o1_1_sym_6_b74 0
checkWelfareEligibility_i5o1_1_sym_6_b75 0
checkWelfareEligibility_i5o1_1_sym_6_b76 1
checkWelfareEligibility_i5o1_1_sym_6_b77 1
checkWelfareEligibility_i5o1_1_sym_6_b78 1
checkWelfareEligibility_i5o1_1_sym_6_b79 0
checkWelfareEligibility_i5o1_1_sym_6_b8 0
checkWelfareEligibility_i5o1_1_sym_6_b80 1
checkWelfareEligibility_i5o1_1_sym_6_b81 0
checkWelfareEligibility_i5o1_1_sym_6_b82 0
checkWelfareEligibility_i5o1_1_sym_6_b83 1
checkWelfareEligibility_i5o1_1_sym_6_b84 1
checkWelfareEligibility_i5o1_1_sym_6_b85 1
checkWelfareEligibility_i5o1_1_sym_6_b86 0
checkWelfareEligibility_i5o1_1_sym_6_b87 1
checkWelfareEligibility_i5o1_1_sym_6_b88 1
checkWelfareEligibility_i5o1_1_sym_6_b89 0
checkWelfareEligibility_i5o1_1_sym_6_b9 0
checkWelfareEligibility_i5o1_1_sym_6_b90 0
checkWelfareEligibility_i5o1_1_sym_6_b91 1
checkWelfareEligibility_i5o1_1_sym_6_b92 1
checkWelfareEligibility_i5o1_1_sym_6_b93 1
checkWelfareEligibility_i5o1_1_sym_6_b94 1
checkWelfareEligibility_i5o1_1_sym_6_b95 0
checkWelfareEligibility_i5o1_1_sym_6_b96 0
checkWelfareEligibility_i5o1_1_sym_6_b97 0
checkWelfareEligibility_i5o1_1_sym_6_b98 0
checkWelfareEligibility_i5o1_1_sym_6_b99 1
checkWelfareEligibility_i5o1_1_sym_7 0
checkWelfareEligibility_i5o1_1_sym_8 0
checkWelfareEligibility_i5o1_1_sym_9 0
checkWelfareEligibility_i5o1_1_threshold 50000
checkWelfareEligibility_i5o1_1_totResult 2
hashedTaxDeclaration 46123
income 40000
liabilities 1000
socialSecurityNumber 123
~one 1
~out_0 1
