amount 3
amountEnc 4
newBalanceEnc 3
oldBalanceEnc 6
pkReceiver 234
randomness 1
skSender 321
verifySend_1_param_0 6
verifySend_1_param_1 3
verifySend_1_param_2 234
verifySend_1_param_3 4
verifySend_1_param_4 1
verifySend_1_param_5 321
verifySend_1_param_6 3
verifySend_1_result 1
verifySend_1_resultVerifyEncryptedAmount 1
verifySend_1_resultVerifySenderBalance 1
verifySend_1_sym_0 0
verifySend_1_sym_1 0
verifySend_1_sym_2 1
verifySend_1_sym_3 1
verifySend_1_sym_4 1
verifySend_1_verfiySenderBalance_1_claimedNewBalance 2
verifySend_1_verfiySenderBalance_1_dec_1_param_0 6
verifySend_1_verfiySenderBalance_1_dec_1_param_1 321
verifySend_1_verfiySenderBalance_1_dec_2_param_0 3
verifySend_1_verfiySenderBalance_1_dec_2_param_1 321
verifySend_1_verfiySenderBalance_1_oldBalance 5
verifySend_1_verfiySenderBalance_1_param_0 6
verifySend_1_verfiySenderBalance_1_param_1 3
verifySend_1_verfiySenderBalance_1_param_2 321
verifySend_1_verfiySenderBalance_1_param_3 3
verifySend_1_verfiySenderBalance_1_result 1
verifySend_1_verfiySenderBalance_1_sym_0 0
verifySend_1_verfiySenderBalance_1_sym_1 0
verifySend_1_verfiySenderBalance_1_sym_2 1
verifySend_1_verfiySenderBalance_1_sym_3 1
verifySend_1_verifyEncryptedAmount_1_amountEncShould 4
verifySend_1_verifyEncryptedAmount_1_enc_1_param_0 3
verifySend_1_verifyEncryptedAmount_1_enc_1_param_1 234
verifySend_1_verifyEncryptedAmount_1_enc_1_param_2 1
verifySend_1_verifyEncryptedAmount_1_param_0 234
verifySend_1_verifyEncryptedAmount_1_param_1 4
verifySend_1_verifyEncryptedAmount_1_param_2 1
verifySend_1_verifyEncryptedAmount_1_param_3 3
verifySend_1_verifyEncryptedAmount_1_result 1
verifySend_1_verifyEncryptedAmount_1_sym_0 0
verifySend_1_verifyEncryptedAmount_1_sym_1 0
verifySend_1_verifyEncryptedAmount_1_sym_2 1
verifySend_1_verifyEncryptedAmount_1_sym_3 1
~one 1
~out_0 1
