ct 0
enc_i1o1_1_ct 15
enc_i1o1_1_ct_0 225
enc_i1o1_1_ct_1 0
enc_i1o1_1_ct_10 0
enc_i1o1_1_ct_11 0
enc_i1o1_1_ct_12 0
enc_i1o1_1_ct_13 0
enc_i1o1_1_ct_14 0
enc_i1o1_1_ct_15 0
enc_i1o1_1_ct_16 0
enc_i1o1_1_ct_17 0
enc_i1o1_1_ct_18 0
enc_i1o1_1_ct_19 0
enc_i1o1_1_ct_2 0
enc_i1o1_1_ct_20 0
enc_i1o1_1_ct_21 0
enc_i1o1_1_ct_22 0
enc_i1o1_1_ct_23 0
enc_i1o1_1_ct_24 0
enc_i1o1_1_ct_25 0
enc_i1o1_1_ct_26 0
enc_i1o1_1_ct_27 0
enc_i1o1_1_ct_28 0
enc_i1o1_1_ct_29 0
enc_i1o1_1_ct_3 0
enc_i1o1_1_ct_30 0
enc_i1o1_1_ct_31 0
enc_i1o1_1_ct_4 0
enc_i1o1_1_ct_5 0
enc_i1o1_1_ct_6 0
enc_i1o1_1_ct_7 0
enc_i1o1_1_ct_8 0
enc_i1o1_1_ct_9 0
enc_i1o1_1_i 2
enc_i1o1_1_i_0 3
enc_i1o1_1_i_1 4
enc_i1o1_1_i_10 13
enc_i1o1_1_i_11 14
enc_i1o1_1_i_12 15
enc_i1o1_1_i_13 16
enc_i1o1_1_i_14 17
enc_i1o1_1_i_2 5
enc_i1o1_1_i_3 6
enc_i1o1_1_i_4 7
enc_i1o1_1_i_5 8
enc_i1o1_1_i_6 9
enc_i1o1_1_i_7 10
enc_i1o1_1_i_8 11
enc_i1o1_1_i_9 12
enc_i1o1_1_param_0 15
enc_i1o1_1_r 3236183140346171839230987301649544538300686106835405015863823569806135620447
enc_i1o1_1_r_0 0
enc_i1o1_1_r_1 0
enc_i1o1_1_r_10 0
enc_i1o1_1_r_11 0
enc_i1o1_1_r_12 0
enc_i1o1_1_r_13 0
enc_i1o1_1_r_14 0
enc_i1o1_1_r_2 0
enc_i1o1_1_r_3 0
enc_i1o1_1_r_4 0
enc_i1o1_1_r_5 0
enc_i1o1_1_r_6 0
enc_i1o1_1_r_7 0
enc_i1o1_1_r_8 0
enc_i1o1_1_r_9 0
enc_i1o1_1_sym_0 225
enc_i1o1_1_sym_1 3233
enc_i1o1_1_sym_10 0
enc_i1o1_1_sym_11 3233
enc_i1o1_1_sym_12 0
enc_i1o1_1_sym_13 3233
enc_i1o1_1_sym_14 0
enc_i1o1_1_sym_15 3233
enc_i1o1_1_sym_16 0
enc_i1o1_1_sym_17 3233
enc_i1o1_1_sym_18 0
enc_i1o1_1_sym_19 3233
enc_i1o1_1_sym_2 0
enc_i1o1_1_sym_20 0
enc_i1o1_1_sym_21 3233
enc_i1o1_1_sym_22 0
enc_i1o1_1_sym_23 3233
enc_i1o1_1_sym_24 0
enc_i1o1_1_sym_25 3233
enc_i1o1_1_sym_26 0
enc_i1o1_1_sym_27 3233
enc_i1o1_1_sym_28 0
enc_i1o1_1_sym_29 3233
enc_i1o1_1_sym_3 3233
enc_i1o1_1_sym_30 0
enc_i1o1_1_sym_31 3233
enc_i1o1_1_sym_4 0
enc_i1o1_1_sym_5 3233
enc_i1o1_1_sym_6 0
enc_i1o1_1_sym_7 3233
enc_i1o1_1_sym_8 0
enc_i1o1_1_sym_9 3233
msg 15
res 0
sym_0 21888242871839275222246405745257275088548364400416034343698204186575808492586
sym_1 1
sym_2 19555711546334792907239612919220290643282405409543589905224261609121507557285
sym_3 0
~one 1
~out_0 0
