amountEnc 4
newBalanceEnc 4
oldBalanceEnc 1
skReceiver 432
verifyReceive_1_actualNewBalance 3
verifyReceive_1_amount 3
verifyReceive_1_claimedNewBalance 3
verifyReceive_1_dec_1_param_0 4
verifyReceive_1_dec_1_param_1 432
verifyReceive_1_dec_2_param_0 4
verifyReceive_1_dec_2_param_1 432
verifyReceive_1_dec_3_param_0 1
verifyReceive_1_dec_3_param_1 432
verifyReceive_1_param_0 1
verifyReceive_1_param_1 4
verifyReceive_1_param_2 4
verifyReceive_1_param_3 432
verifyReceive_1_result 1
verifyReceive_1_sym_0 0
verifyReceive_1_sym_1 0
verifyReceive_1_sym_2 1
verifyReceive_1_sym_3 1
~one 1
~out_0 1
