aPC 28
aggregatedPowerConsumption_1_param_0 1
aggregatedPowerConsumption_1_param_1 2
aggregatedPowerConsumption_1_param_2 3
aggregatedPowerConsumption_1_param_3 4
aggregatedPowerConsumption_1_param_4 5
aggregatedPowerConsumption_1_param_5 6
aggregatedPowerConsumption_1_param_6 7
aggregatedPowerConsumption_1_param_7 1
aggregatedPowerConsumption_1_param_8 7
aggregatedPowerConsumption_1_param_9 28
aggregatedPowerConsumption_1_result 1
aggregatedPowerConsumption_1_sym_0 0
aggregatedPowerConsumption_1_sym_1 0
aggregatedPowerConsumption_1_sym_2 1
aggregatedPowerConsumption_1_sym_3 1
aggregatedPowerConsumption_1_totalPowerConsumption 28
data1 1
data2 2
data3 3
data4 4
data5 5
data6 6
data7 7
endTime 7
startTime 1
~one 1
~out_0 1
