amount 5
newBalanceEnc 6
oldBalanceEnc 1
skBuyer 999
verifyBuy_1_claimedNewBalance 5
verifyBuy_1_dec_1_param_0 1
verifyBuy_1_dec_1_param_1 999
verifyBuy_1_dec_2_param_0 6
verifyBuy_1_dec_2_param_1 999
verifyBuy_1_oldBalance 0
verifyBuy_1_param_0 1
verifyBuy_1_param_1 6
verifyBuy_1_param_2 5
verifyBuy_1_param_3 999
verifyBuy_1_result 1
verifyBuy_1_sym_0 0
verifyBuy_1_sym_1 0
verifyBuy_1_sym_2 1
verifyBuy_1_sym_3 1
~one 1
~out_0 1
